39b3f94f
3ad7fed4
b9c4c78a
396f18ee
3a94b987
b80d533f
3b4c46f1
39a39ac2
3b01ccdf
39bd1985
3b2b7ca9
3a9ddf02
3b5d023b
3a85255f
3b9bb6b1
3b883fb5
3aa64d94
3aa52db0
3b41e80f
bb3f7dcc
3b00988a
3b05ccd3
3ad6ea54
3a4c8bab
3af1b686
3b1c46c9
bab48fb7
3b1efbc7
3afaa2e5
3a6a67c3
3b2952bd
b912670f
b931cc96
3b960534
3a546f89
3badfd6d
b3d7f100
3b8a3d5c
bab3e1f2
ba56dd4d
3981e776
3b4483ee
3ba2d9ed
3b8c67de
3a8d92a0
3b43f27b
3b3a482a
3bdab87b
3a0a8e6f
384cf743
3a72209d
3a13d987
3a8d761e
3a051fe1
3b90b71b
b97dc3ad
395265e8
3b372cb1
3a8e68a7
3bb76334
3b32b945
39a4f319
3b188188
3905ceae
