3ad2936b
bac904a1
bb053217
3b624cf1
3b50d0c3
3b997585
baa2107f
3b862d17
3bd0fe1f
3b170a1b
3ab298d5
3a78dc2e
3b9ca18f
ba0d5c6f
3ba8f9cb
36cdf214
3b928507
ba1a9e3b
3c17ad44
3ac4a2d1
3b315d0f
3b1b4ada
3abba393
38f1c574
3a02a81b
3b977991
3b7fe172
3a0f8e62
392b569c
3ab7c25e
3c3810e6
3bd19f39
b9b1b1a2
3b28310b
3a335643
3b0f9e53
ba7fc61a
3b8f2c7a
3b820e88
bb0e4877
3bb6d398
3b8a8b18
3b9d53a0
ba8d87b3
ba13ef86
3bf15e72
baae5e94
3bd6a718
3aabb33d
3b20d5f0
bab0e28b
3b323b1b
3b75bc65
3bf8a1b5
3b0b7c2d
3b447042
399430fc
b8cd9877
3b09186d
39f42336
3b230484
3b27b2d7
b9ff8d76
3b0b753e
