392c107c
3a163755
bab628f6
3bde7e90
3b374828
3b946cc8
3ae7c403
3b7f253a
bb9eeea2
3b6ac572
bab102c2
b9db88dc
3b7ec83f
3b76a442
39f7031d
3b8f4396
3b3591cf
39a514fa
3a996aa5
3b1dc7d6
bbda2075
3b9ea896
39c60b3c
3ba7f21b
b9fc2daa
3bcde489
3b95991d
3bdbf4f1
3b98a7a5
3bcfa504
3b40aba5
ba1edd3e
