3a1fd138
39c0a0c2
3b137e8b
3b3ddc28
ba082530
3a26b93b
3ac7e483
39fb2714
39fb9190
b906528e
3a935fca
3a702e21
3aedec9d
ba395bce
b8331dd7
3a4a5e67
39f7e878
3b8239aa
3b639809
3ad06b3a
3a97ab4b
3b0100db
3b6debd8
3b053f0d
39d2ed1e
ba508e9f
3b3f9bc7
3b343566
3a8c953d
3b163a59
390b89ac
3a081478
ba5906ef
ba3374ef
3b59ec97
3b188c28
3a85e37c
3b45f378
3a9face5
3a8a5896
3aab7802
b838e842
3b4fb32e
3b7019d9
3aa1b2eb
3af28437
3a9cca20
3a14055a
3b8f60bd
3bdb4582
3a00b84f
3b5ce2aa
ba1385cc
3b43c704
3a1b2398
3a5e2e5b
ba1b5ad6
ba3e514b
3a8c5b10
3ab0ba7b
ba1e10f3
b88f0a49
3b05bb7e
38c8d144
