3b94b85b
3b104cd9
390523d7
3bb08604
3aaec49c
3b2417ce
ba3613e6
3b35c973
389b7173
3b0a2b7a
ba8b5bb1
3b323dbf
3b4e6b79
3bae13c8
39a3888c
b9c06b07
baa66b6f
3b7913ff
3a8cdc4b
3a075414
3ab132ab
3b414778
3ad2cbac
3b70996d
3b9dee65
39922493
3ad720ff
3a950a95
39d2899f
3a621748
39b57658
3b395e0a
3aee02c4
3b86cbcb
baa283e9
bae80ce8
3b1882c7
b80fa8a1
3b0ca995
b99d644c
bade99f9
b9cfab9d
b9e5118d
3af5e036
3b57fbd1
ba6b3ba6
3ba35f84
3a116264
3bd7ff45
3aba6ea1
b917f46d
bab27c67
3b294fa0
3b30613a
ba37e29c
3aa208b8
bac7041e
3b1b3e02
3a79172e
3a1320d0
3aa563f5
3aebdc5d
3a459941
3aac767f
