3ad76157
3b0555b5
3b08b894
3b61575b
b9e95323
3b1874fe
bb0742e2
3b146dc2
3b439975
3a2686fa
3b65d06a
ba42ca9f
3ba702e3
3aac9ebe
3b7e6df8
3a6a319b
3baa2df2
babc8131
3aeded60
3b1412ed
baf23cac
3b267ba8
3aa137bd
3aab3410
3ae4debe
3b7c2e09
3ba00b2c
3a853f72
38f07eba
bad8c8fd
ba816ce2
3b08635f
