3c88bafe
ba10e07b
3b16c1d9
3b84ebfb
3bb6b660
3b1f95d8
39f01f71
3b3e09d1
3b45d8dc
3a8640b7
3a54c518
3c5a6ee4
3b90252d
3b1a7867
3b707df9
3b1e3892
3adb1790
3b4e7a6a
3bdb19fd
3b4b09cb
3a43d52e
3ba62849
3ba044b1
3b8ca7cf
3a26a248
3b9a5d44
3c73dd8f
3ba64d53
3c58baa3
3beec8c6
ba2f7456
ba83800a
