387e7080
3af65c14
39106da9
3b48e175
3ae156bc
3b9d0e4a
bae34e96
b9a8a188
b9e8eb98
3ab6aa4d
b8848bed
38cda549
3a151822
3b5730f0
3b7dd530
3b43d98d
3a484dc8
3abcddf4
3b38ce2d
3afef353
bafeb612
ba749ced
3b784224
3b6396a6
3b1d59d7
3af19921
3b3cd543
3b42ac02
b9aecf6f
3b0daae2
ba81785f
3b6d80ca
3add6a12
3a320859
3b30dcaf
3bb60c73
ba366921
bae0c6f3
3b0f946b
3ab02d10
b9e1652a
3b38623e
3b22da80
3b954f2f
ba341148
3b69484d
3c470fa0
3b5e551a
3b077e97
3c27dcc0
3b17432b
3befd374
3a78e9b4
ba383ab5
3a59aede
3b69379b
bb1971bd
b9549214
3b329036
3af2c22e
b9bb70c5
3b749b1d
3b7e6afa
3b39f196
