3ac083e9
ba6774e6
3b228e14
ba380647
39cc1ee0
3ba71b2f
383a928a
bb75265b
38319662
bb201012
b9fe941b
b59a5e5d
b99176db
ba33feb6
bb45cd81
3a3e80ce
bade1158
3abe0ebe
baa4d640
39d1ac58
3aeb6fd1
3a8093d5
3ab15473
3b249075
b967243c
3a6a888f
ba0d940f
3ae3f0dc
39c0af26
3bb94d65
bb09ef4f
3b07cbe4
3afd7fcd
3b9d8efa
3b0cff6c
391832be
3ab85a25
ba1a6e76
3a3a50e4
39d9c5bc
bac522b3
3b4b4cea
3b1f0e61
3b5a3972
3ad83c47
3b2ab6da
3aee96d5
3b2085a0
b898eb55
391036b9
3b724171
3a1ef4d0
3b110d88
babfd560
3ae4747a
baee0267
39e560b5
39e0e8ba
38cb15c5
3b0bebdc
b9f95e39
3b43361d
b9db9cb3
395ddfe9
