b9193d91
b9c5e07e
3b8d6b2d
3905bdd1
00000000
b86a1d89
bbdd57c4
00000000
3b251c67
3babf7b1
3a967f55
3a5c5493
39babcd1
3a8c6f4a
3873af20
b6868572
b946a714
3b356762
00000000
3b5c174c
3c033de4
bae7cce3
bb624dc1
ba1f6f26
00000000
3865dd44
3abb597b
bb4f8f2f
3b40caa5
00000000
b7cc2ce2
3a9e4b6f
