3e61e2b9
3df97fe8
bcfcdbe2
3e1b60ef
bdab3db8
bd2d438f
be41c120
be1ea5c4
3e317f4a
3e29dad9
3e7c5868
bcff30f2
3cfcf471
be3a551b
be1d8196
be33f5a5
3cb9e5c4
bd404ce1
3df3e8c8
bddfa82a
be4857cc
3cce100c
be13776f
bdaf4bc2
be7382b0
3e16facc
3e736142
bd927bc2
3e425435
3e08fc0c
3ca08761
be72d43e
3e2278c9
3e16c8ea
3d20df23
be594946
be6e5270
3df537b8
be5be665
be457548
3dc95b45
bd9fc4f5
be3f043a
3dadd62f
3e531dd7
be359e54
3e64f28a
be4b5ad2
be1ddc50
be392314
3e5a0044
3d87845b
3dd7303f
3dc5e3f8
3e3f975b
be2c202f
be0d6fb4
bda12f3f
3dd6a783
be644c12
be73d3dc
3e461c94
3d190a0b
be4bd525
3e4a9c25
3e77c261
3d13e5cf
3e233100
3d52ac20
be6d6877
3c1490b0
be556a78
bbb75065
be5ed53b
bda33f9e
3d149804
3e46a8bd
3d7e4fc5
be02a990
3e4e102d
3d98343e
3e152af9
3e5a9ccc
3d2ac398
bd24ad16
bd153ab2
bde290c7
bd184e7f
bce0dc20
be4bb78b
3da7b31e
bb2874fe
3e5104c5
3e707ff0
3ddd4489
be359131
bd6d9af6
bdd39624
3e4c3d68
3da3f84f
be082d9c
3d4adb14
bdb44a81
bd8980d0
3db3dad7
be133ba1
be02c702
3e5e2f19
be50a49a
be2916e2
3e056a22
3e3720ee
3bbac46e
be7b5b2d
be58d65c
3e813385
3cfe21a3
bd945620
be16bc68
bd8af695
be347a00
be406183
3d264519
be6628a4
be7d7c59
3c1ecec0
be74f5f0
3d9ed4fa
3e60086e
3e283a98
3e4d1833
be226f48
bdcc69a8
be67f367
bdd0376e
bdad7548
3e452f9d
bde69984
3d76e33e
be4ee382
be22d05a
bd9a8af6
3e1faf45
bca1a71a
3e54d894
bbb79a77
bdb628b8
3de5c3e0
3ba55046
3e368987
bdfab1d7
3d13b9e8
3dcfc3f0
bdfa2602
be359808
3e75a95f
3e6901e3
be2869e4
3e629d7b
3d85785d
bd80dc7b
be6ce5da
3e3438ee
3e55708b
be04b7f0
3e56173d
be14a2f6
bc625940
bd0f3175
b8e1fb8a
3e097bdf
3d946697
3e778844
3e16852b
3d498456
3e470779
3de4a461
3d67afde
be6af890
3df9fbbd
3e79c383
bd866e8e
be55e0fd
bdcaa6c9
bb2f0000
be0a8dc9
be126bf1
be44c576
3dd8b567
3db53c20
3e242aa5
bce09e49
3e777fc2
bb979b2c
3e2dd35c
be33c5bf
be3e24ec
3e4ef86b
3e140f3b
3e5a17d8
3dc5c5c6
be3a5fb4
3c83a429
bd9edf22
be39aee8
3dfc32f7
3e7158b1
3e5c3b84
be010af8
3c37e886
3e0e1f78
bd9ec6de
3d91a00a
bcb8ac9f
bcab5dd6
3e149aed
be3a0b98
3e6f576d
bcd23fe0
bde29016
3e242b8c
3da59138
3e76c5ba
bd3efe7e
bcf957a1
bdbadece
be565a68
be57d015
be41f25c
3db4e089
be1d0310
be50e684
3e447ea3
3dd8f72d
bdc6f80f
bda611d7
3d54d0a6
3e80437f
bccc50bf
be518874
3d6c53fa
be075022
bd5ee270
3e43c168
3e545652
3db9e85c
bd2764ee
3e2b8a3e
3da84fe0
3e42f6ab
be55853e
be6235c3
3c9b725e
3e720738
bdba5892
bd5b8a29
3ba46158
3da77c61
3e07b80c
be1fd29b
bdc8b800
bc845a70
3e6aeb19
bcb7e260
3dd77674
bd638f85
3e00c305
3e00dd04
bd196fd1
be707879
3dac54cf
3e1bbda3
3e460c49
be6fbfd2
be3defe4
3e19e6d7
be3599d5
3e208867
3e4dbf48
bda1143f
3dd4a280
bdaa7ed2
be1585db
3d9fe56e
3d88cc22
bd289cc0
3e19da3a
3e6900d8
3d9d0bb6
3d2800c2
be7d2be0
3e3acbb4
3e4611ec
be08c85a
3d89dfde
3c8a6c20
3e665fcb
3e4c1aa6
3e505842
be56afd9
bcd92956
be0393d6
bddb22e5
3e7109f4
bdeaec3f
be2d61e4
bdca1608
bddb7f7c
be33935b
bd8a31f1
3db15c33
3db2ddd9
be1f5fe0
be29752c
3daca043
be7ca939
3d1932a4
be347d0c
be2a51b6
3e255b32
3e4d7d4e
bde61af1
3e192531
3d868c1d
be688c80
3c635983
be5f3517
3e5a771c
be5c93d1
be4e262c
be5a5d44
3c1d4013
3b229ef5
3d13b198
3d1ffb79
be78361b
3bb9e176
be77600f
3d8f5ef8
3e25e807
bdee5fb4
be1302e0
be28a98e
be408d8c
3d4412f0
be3f243f
bd875598
3e338d4c
be040290
bdb1be68
3e1a2763
3dd3d738
3e3eb517
3e35f461
3e1ec57d
3e1341cd
3d88ea18
bdbea8d8
bdd71db7
3e6c970c
3e79ebb5
3c85b59b
3e0cb0eb
be2563a1
be3c29b4
3d7c64bd
be1a9101
be32b27c
be128b86
3dcbd603
3e165968
3b55ffdb
3e7b67c4
3e4b7bdf
bdd8c21e
3e3d5fe8
be36c8c4
bc8971b4
3e5c0ad5
be66c818
be367f74
be097228
3e39dbae
3d4acd7d
be817b12
bd7d20c8
baec4df0
bdb63c40
bda6cd30
bde513fb
be30304a
be192e9c
3c1bbc9a
3ddf7b48
be711d3b
be06609f
bb098869
3d5cea04
3d1f512b
3e143540
3d60498b
bbf4a3ae
bd502f70
bd59284c
3cfd2140
3e4277a5
bcea57bf
3e41c8f3
be04d8a0
be25d93a
3da0c953
bda8e0c7
3cb7f743
3dc636e0
bd419b5a
be332fff
3e0805c5
bd7101a4
be54df15
3d11471e
3e3a67e4
bc84ff5c
bda5cfe2
be63575c
3bd7ecd0
3b8a1533
3e58c019
bb92eda7
3dd59f06
bdde6b2b
3e60d6af
bb8b5f70
bc26b6e2
be402405
3dfa05a0
be666f11
3e65dbb3
3e679d65
be6c7fae
3d92bd11
be0a07f4
3e3e0e35
3e0ec638
be6a9708
be4915c9
bd8c2480
be50e7db
3e5917b5
bd0e5012
3d5bd468
be00b89b
3e569d35
be52f1b4
bd192446
be60fd4f
be45c044
3e49dd39
be0266ba
be6418e5
bdefef67
3e5dd752
be219607
3d2daed1
3e50a559
3d0c5ba1
be108e60
bda392d8
be4342ac
3ca602ba
3e73499c
bbe984aa
3dbcc87e
bda78560
3e17f1ea
3dcd6e40
3e6da850
3e6610c3
bddc7648
be7892fe
3df4cbee
3e445fbf
be2a0061
3e2c583c
3d482cdb
be45d180
3e03115e
3e3b74da
be27c4dc
3e64a86d
3c829ef6
be520ce1
3e728674
bdce6c0f
3dc9b00c
be4bd328
bc84e412
bca57ab6
bd99636d
3e38f6f8
bcfcbece
bda688bd
3e6ff82b
3e04d536
3d940af3
3d2d4610
bcdf2198
be362497
3e40d611
3e24c7b0
be13a5f8
3e0ed9fe
3e1110e3
bd5748d4
bd41e99a
be1edc02
bd6edf21
be2432ec
3e553be9
3e0cf4ad
3da96ba8
bda574c4
3df28a9d
bd31ecd8
3dc7df50
be1e05c7
3e7f1dbd
3e6085b3
bdeb4ea7
3dbc6bb1
be3f954b
be558078
3e83a69a
be579696
3da545dd
3d533e46
3e3c48c5
3e410da4
39c11880
3c8761d6
3c131a7d
3a47fb03
3d64f5f0
3e2d70bb
be6b118a
bdf400e3
3e0d9243
bc04e4ab
bb77a676
bda53848
3dc8ccf2
3e531f80
bd8bf390
3e54fbd0
3dfecb6a
3d8d99a3
be019f45
3d8be382
3d4dde0c
3dfa0e64
be2cb63e
be502512
3da7fcbf
bd569ea0
3e748fca
bddac55a
bd59b729
3e166142
be5ad4cc
be7d8c28
3ddf2bc3
bdebed78
3dccbe4e
bd95c55d
3e5f3738
3d444504
3e4241ff
3e5f2794
bdd4e1d2
3d4016a3
3e176713
3e27371c
bd2b39e0
bced6aa8
3ccbadc0
3b995df8
3e44df7f
3e0e2a71
be54d7e5
be5f4e72
3e54d003
be486350
3d74800d
be27452e
be36480a
be4ba538
3e3b1dfb
be7ba6e5
3e61ab68
bc1d85f5
3db347d5
bd1afcb0
be2e34a6
be612c88
bdb3df30
3e190385
3e54e04c
be02a02e
bc93a838
3e4fbb2a
3d33d8bc
bdbcc7b0
bdae2a0f
bc2509c0
bdba4078
3daf4c7a
3da26290
3e4f6cb2
be79a29f
3c26803c
3d9d9d23
3d955dd0
be753815
bdc6cf64
be6ba4f5
be35219e
3e3ce3e7
3e70bde4
be304b15
bb2dfccb
3e11a880
3c775f84
3d539e7e
bcf48520
3e5d7dd5
be029737
3d87f496
be3c4ce7
be68f1e0
3a732973
3c570e8e
bd70e3cc
3dfd8c19
3e8042ed
be3f3838
bdd88f28
3e679f40
be22480d
3dd20430
be434239
3ce491d2
bd892f66
3e4a67bd
bd2c412f
3deafead
be729add
be1f1ff3
bd5ea4ff
3db3cb87
3b653700
3db25d01
3d81cb36
be72873e
be714e36
3e77f404
3ddb4030
ba4b3400
3e2c76e1
be0ea768
bdcf2904
bcd890a0
be31f318
bd2ff954
bdafba6f
bd60a58c
3e563db2
be4df337
be1f44a4
3e389d9e
3e2d5681
3e348218
3d3526c5
3e204b67
3e0130d8
3e262963
3e0930e3
3ce7ecc9
3bed21a6
bdedfe3c
be05eb12
3d4aac7a
3e514a38
3ce0f976
be2bd4ad
bde906a6
3e2f697e
3e025d49
bdefa090
bcfbab44
be3bb80f
be5fff9b
3e59dbc2
3d95c548
be0c8545
bd1fba57
be0602f4
3e037120
3d0bafe7
3dfa15a3
bdcb2198
3e05d888
bdfe757e
3bd97500
be65721e
3e4e3497
bdd43339
3e1858cb
3e42fdca
3e652fa0
3d907439
3d7f4bae
be6495be
3c7da448
3db47c48
bdb6b85e
3dd5615d
3e75761d
be4b9a3e
3dde777e
be6ad26c
3de2201f
be32705b
be473e02
3c8a1034
3db26f40
3e36a235
3e230a4f
3d1c20f3
bcbe18a3
3e306c31
3e70f0fa
bbcc6800
be22effd
3c3b0ad0
be23f744
3e29e104
3e32e8e5
bd8fe2cc
bc8b0033
bd8b9f38
bcc0cf2b
3c267be3
3e809c10
3dcd8289
3b6eb764
be0c65a0
3e62bac0
bd8439fc
be0ed67b
be65f768
be6d0dd8
bc6677c0
3e4fba74
3dc3cb1f
be6fc399
be1a77ac
3a783800
3dea95b6
bbfd82ac
3e34124b
be5465ca
bdbc3521
3b0f71ae
bd517ea0
be24e6c0
3c32128d
3e6795b8
3d7cd9f4
3d98df7e
bb7a0278
3ca58a62
3e2203e2
be3e85d5
be7264d0
3e0825af
3e6cd547
3e0cd411
bd223e70
be3d3ef7
3dc20309
3daf554f
3e680725
bd6b68b2
bd9ccfd8
3e59e9c3
be4dd237
bded3030
3e68edae
be483208
be732c7b
3c8b41e8
3e091f1e
be42236a
be1a0fd5
bda77ba0
bd8ad860
bc226e09
3e049ec2
3e5ec388
3db993a2
be048a8f
3e1f78d5
3db855c1
3e3f82a0
3e12ba55
3e503487
3e73ca44
38caeb4d
3e3a6eea
3d87ce88
3d0da2cb
be21d1e1
3e73c684
3e58e514
3e667759
3df3fca0
be178c6e
bdcb1ab5
3cc03d2d
3e5d781e
be5d25e8
bd89ab0e
bde8f5e4
3e1ec641
3e6b7b7b
be581898
bdbd2b5b
3e02ff4c
3e03bdf0
be2629f6
bdb370e8
3e5c494c
be5e738e
be5aa23f
3bc1a273
be22a72f
be7b0e6b
3d9b5fdb
bd419255
be167ed8
3ac0e3fe
3d9c9838
3d854fe3
bd5a9e45
3e293c9d
bdd41c3f
3e73e96a
3dba4620
be644aaa
bd7a92c6
bce6bd3a
3e1b0e32
3e4c8c3c
be55c85f
3c9930e1
bdb9c25c
3e29a4dd
bdfca368
3e1ec3a5
3e0aefc8
3cc23ec0
bb08f5eb
3ce962c0
3e0b93a9
bc99cee4
3d7a081c
bd98dad8
3e4a09d0
bd876c4b
be211e7e
3e1c50d4
3e6a8d21
be18fc4a
3e624a34
3dae5d8d
3e30221b
be73824f
bdb334c7
3d824af1
3e561380
be108d62
3e0899db
bd274706
3d24f71b
3d8c9218
3b1ba2fb
bd86e1a7
3e2eeb89
be4d7e35
be80191a
3d3b71d7
3e7a281c
be5c1c28
3e675c8d
3d0fc8e0
be4af5e9
3e6d1d2f
3e190937
be55acf1
be08b6ba
3e5a82ad
be1e76ca
3e6e9c3f
3def5be0
be1891c9
be7f3830
3d64fc1e
3e69002f
3dd12155
3e7624d2
be6329f4
be0a3b78
3da01a35
3d9b051d
3e13f1e5
3e6b92f0
be4779d0
3e4ae55b
bdc3df46
be45c603
bd8c24ad
3e402522
bdd5b0de
be361164
3dd59ddb
3d9cf60a
3e7cc878
3e785097
3bb54738
bc13f29d
be4a0b50
3d30b727
bdb27665
3d9b7984
bdfa98db
bb8b65df
3e49d4ad
3e4c875c
3de20551
be24573c
bc46f974
3e01f9fc
be06a483
bcb98660
be2271e3
bdfb3593
be27fd22
bcf4617a
bdef29b8
3e40c942
be0cd874
3d313572
be174bbb
be131901
3e3de5d7
bcba43e0
be64b4e4
be5a9ea9
be3f866c
be81b547
bdc281f7
3e472707
3dfb88ae
bdc62b7f
3c21b89b
3e5bcf16
3e3b1809
3dc4d403
3e0710cc
be5ceae0
bd57df77
39db326e
3bc6279c
3e450461
3e3e9e16
3e4659a0
3e259a8a
bdf7246b
bd049a6d
bda7dd9d
bd38dee0
be6d71a5
bba0d3fc
3e4b567d
3e214407
3d20bcb9
bd664664
bdcdb340
3d6499af
3be5debe
3da52770
bd5e2991
3e469c20
3e062c1f
3b51eeef
3decb24b
be1bf668
3e3e1680
3be7b2b9
3e3971c1
3e466ca1
3e06eb50
bddd7c52
3e58cabd
be22d0ba
be7837dc
3e449118
be2bea0c
bd0150fe
be797f30
bd0395d5
bcee3735
be02e938
3dae4737
be768cda
3e038eeb
bc9b1a5a
3d5a7cfa
bd057770
3e71d358
3dc36792
bcb9885c
3d4a3470
3e530aa9
be493df9
bc3493a1
3e3cec63
3e3e5dfb
bd1691eb
3e6beb36
3ddf9dba
3b272711
3da8be17
bdc82070
3e07302a
bda3d6d2
3e7c984c
3dc2ec26
3e78bdd1
3c52d800
3cba85d2
3e756564
bd66cd0b
3d7a0e0f
be5bfbf4
bce6ea7d
3e1e6515
bd209366
bd88bcc3
3e2acede
3d9a8583
3c9e1860
bd7a4dfc
3c9ce63e
bd131f80
ba7b02b9
bc8ae7f7
be43b72d
3da94d7e
bce65aa6
3e15d1b2
3e261b6b
3e11e811
bc94b3d2
3e1e9db5
be0745cc
3e6a897f
3e2c8cba
3e232caf
be4f4229
bdbb7a08
bda086a8
be2073a1
bda52d06
3e1b39a7
3e793b6a
3e4eae28
3d9b4988
3d67d3d5
3de664df
3e58921d
be35cd38
3e7881e1
3e700eb0
bcd21f10
3e00b1f7
bdd82498
be50eab9
3e4eef7b
be33588f
bd55ee23
3d836744
bdedf1cb
be685113
bb1d3317
be17b65f
3df37862
bcfadec0
3dffb6f7
be15193c
be1a9f4e
3cef0870
bdfea6aa
3dde9dc0
be02f3dc
3e72a14f
3e46abdf
be06580c
bc9521a0
be0f937f
bd9e1842
be6f0313
3cce521b
bdf1dd82
3e570d06
3e1d5408
3df0469a
3dfc3c1d
bc2f5740
bd2c0579
3dcbaded
3d272df2
3e32ff91
3d8b5b9c
be413af7
bdf95bf5
bdce0a00
bce7d811
3d3fc40c
bd94c560
3e3981e1
be30dd46
3d8e9549
3e60dbb0
3e7ca779
3c65f580
3d003793
3d99d726
3caa0260
bd5ce297
be4d8ec0
3d5031e3
3e5c8520
3c5d5241
3cd8cee3
be1c11cd
3e466760
be46cb34
be07bb4b
3de312c5
3d0b23e0
be5900d6
3db02eab
3e6fd81b
bd62f72f
be65d482
3ba701db
bdc7b301
bd7e1637
bd22f6ff
3dcaa5c3
bd6c6e90
3e02b62d
3acb352b
be2d976a
3e65a751
be80260a
3df1eaf8
3d33b527
3ddac0e7
be3d36cf
3b15bc7d
bde823b0
be186a1c
3d8950b3
bc96a0c1
be218390
3e0aceb7
bd833716
3dde3218
bdb42dab
3e38ee47
bde18d88
3e314698
be11e07f
3e3a87ac
3d8aa6ad
3d97cd3d
3dcc2a03
3e5bfa47
bcde706e
3e19ebc9
be66114f
bdaf8fc8
3e61be3a
be6fff6b
bd8174b8
3e1d7220
bd497679
3e3dbe8c
3d0ecfb2
bdd82f53
3c75cacc
bdc373c4
bdc102e0
3dbb320e
be2f3e4c
3e0ef2b5
be776365
3e5ff6df
3dce2608
3e03a588
3d8feace
3d766f9a
bddc49a8
be5c8756
3d9531cd
3d2d9d0a
bdb4e881
bde42644
3e1ef505
bd9c001b
3aed15e9
3dd32acd
bce4471b
bd90aa68
3d6180b1
be6b1973
bdf805b2
3d7568b0
3da90568
be69a1b8
ba80837f
bd24dca6
bd3a76c4
3e0aadf8
be26b834
3e43884f
3bb30340
bd9af617
3df13da0
be19ec8b
3e4aa474
bb99db00
3e7e2f71
bdc0758d
be6fd2c0
3e6ed13c
3bc9bed0
bd84dd67
be3a8677
be301dc9
be4a027c
3e07015e
bcf17cad
be6848ff
bd0d5f3b
be43bd48
3e51097c
bdaa5d25
3c00e3d4
be540a89
3d965a28
3e244c90
3dc2c41a
be3c9c40
be399c9f
3e5eaab6
bc97a240
3e0d862d
3db46829
be7c5bc0
be330d15
3e83d60a
be0006a6
3d085390
bdce8f9f
3e2596e2
be31e710
bddc6a49
3e858800
be5c672f
be05bb57
3e668390
3c99d413
be248af3
3e6aec66
bd9f6ae8
bdc391cd
be7bdefc
be7af188
3ce431e7
be4332e7
3dd224eb
bd5dcf3f
3ab16000
3e56d0b5
3c9ab24f
3cadf005
bcf74f75
bdcc7c28
3dcab5e8
3e1d77a2
be5594a1
3b9bd080
3e5ab5f5
3e506f42
be00bcf8
be4b9df0
3e3064e8
3e06cfac
3e40524b
bde1ec77
bc9ad4e4
be0a4e91
3e848137
3c9185ae
3e0488bb
3e1f5560
3e449f7a
3e3ded90
be23ee88
be12f137
3e07848d
3d0f465a
be7549df
bd3c731a
be0a1c58
3d8a91c6
3de90db7
3e5ef150
bd49d9e3
be3105d4
be6a54b1
bdb5f6e8
3e6633da
3d6db93f
be143f45
be642ff8
bc042ac0
bd8e1460
bd57afde
3d222e80
bd823b8d
3e7aa30f
3dfde51e
bd8baaec
be1adb7e
3e683dde
3d48eac5
3e35e9c7
be65af89
3e63131e
be4a5bc8
3e0ff620
be0432a7
bd26881d
be6c76d3
bad71c8f
be7b0f54
3d2b519e
be1c57b8
3d37f623
be1c3f5c
bd647870
be17e4d4
3e479e7f
be203c6b
3e070923
bdf44826
3de430b3
3e5cd5d4
bd4fb0b0
3bc1ec12
be0bc7e0
be3384a0
bdfc9fb8
be43c7aa
3e682bed
be3da86d
be1bb1c3
be4fdc33
3e447924
ba8af82e
3e853b24
be05a410
3da8aa93
3e090b4b
3bafd327
bad7f4c9
be08c59a
be4bdf44
3d870e6f
bd62c10c
be587233
be23f342
3d239c30
3dfd4cd2
3d0b6ce8
3e73f236
3de1679f
bb944b93
3e33c642
bc755780
be27b14f
3e4fb142
3d398980
3de0065b
bdb5c925
3e38f170
3e4cbab2
3e2f7cd1
3e00508e
be2b3a8e
3e54ced6
3e64d24a
3dce3a72
3e5e8a14
3e457114
3da14907
bdbfd7fe
be37d04a
3c9f6aec
bd9e76d0
3e33bc21
3e7d7e72
3db36722
3a8f213c
be64eba8
be1c8b4f
3d968363
be675674
3d981337
3e389456
bd410052
be40e8d4
be4bcd1a
3d86dbf4
3b78dc00
3e24745c
be07aeee
bdab2ab7
be6de584
be1846b3
3d49a19f
bdbaa357
3d19f661
3ceaf74e
3e0152f3
be24710c
3e267974
be73c688
bd0fd04d
3da5ee7a
bdc42869
bdab87c0
3d9ebe4c
3e4421cd
3cb4737d
bd84e8f3
3d2eb370
3e4d361f
3e28d560
be45adb9
bb411c70
bd40f59d
bdfcb0aa
bdc09838
bdbc1d73
be7c5273
be489eec
bdc2ee4a
3db1eb3b
3d8a8166
bd5e966a
bcc6b346
3da7beba
bd33ed38
3b3f8f38
3cc77524
3e10d2ba
3e4f2818
3d9c42ca
3e1e76ff
3d16e74e
3e510e77
be453e12
be21e83c
be66367c
3dc41fcc
3e18d993
3d281f8a
be1dcd14
be4f43c0
3d384ab7
3e431b03
bde61f93
be413069
3d29077b
3d602f50
3d9a530a
be01cc5e
bb44a000
3c98e015
3e056bde
3d780cbe
3e2c650f
3c924e1a
3d900b17
bd650d94
be78b50d
3c867d60
3e0553c9
bcd02f40
be3d137c
3e0e4762
bc65dabb
3e10e2e0
bb403817
be726874
bd499833
3e2e69ec
3e26b6bc
3e4fb05b
be156778
3e5b58b5
bde6d600
3e3dd3a0
3e1dbe84
3c641f67
3decfb46
3e14e52c
be7e7757
bd6682ba
bdc92478
3e2c31e1
3d7a2d33
be4dd48b
3e7d2d9c
3e4387ff
3df827b5
be231c05
3ca7fa90
3e30e805
bde24345
be40b2e4
3d3b851d
3de24c57
be78e9f1
3e65fc7c
3e00e5bb
be6984e4
be6decad
be010d03
3e0f283d
3e068413
3d218f40
be233822
be11e5fe
be0a157d
3e3924ae
bdcdc27c
be5ba1c5
3cfa3860
3d7a69e9
3e6366a2
be2640d0
3db619ce
3de2ed26
bd24004f
3d2589ed
be5080f7
3e497b85
be768a23
3e3fde4a
bdf758f4
3cba5043
bdb09238
3e47bd15
3da83dad
be355a7a
be53c0cd
3e7dd301
be5d45d8
3e52367e
bd1acddc
bcae3cab
be00f826
3e063a64
be706586
bdfa03fa
be36f408
3e2d4500
3e193db4
3d4ec1ce
3d492fa0
bd002a1e
3db00b51
bd97ccd8
bde7f4ac
bdee082c
3e3612c8
3e0b94a9
be3344e0
be4219a1
bd5426f2
3bbc8e69
bd5df5f2
3d4225fd
3de66c28
3e4926b4
3e4decfb
be1a8001
be4c531c
be230708
bd807b88
bde247ad
3c6f8ad3
3e1f599b
be388f8b
3e20d364
3c9798f9
be5c6297
3e4c2e90
3e02916b
3e3e0506
3e37a118
bd8450c0
be16ed36
be36fb40
3cb12e80
bc0b82d9
3e0926e9
3e34ed7b
3db39886
bdc60eea
3e4e1f36
3ba46da7
3e040eb6
bcca2ee3
be06b29f
be31ef18
be109be4
3e28e5e2
3df9ddd4
bcbfcff1
3e162a4c
be15123c
bdbd4536
be6269ee
3e141631
3e1e38fc
3d8274c0
3e3e61ed
be40f113
3dbd7e11
bcaa1be8
3d9ffa90
3d5ae9ec
bd66c880
be5fcf05
bd0f6357
3ccd1520
3d315c95
3e1944ce
3d9843f6
bd602ac7
3e33b4bc
be11381d
be01e26a
bd885991
3cb3e7f5
3e56c573
be1189e8
3d3cc6df
3e7f0ff5
3ddeb745
be466e15
3e36a759
be4557f4
3cb3c74a
bd5b8be7
3d2f9e86
bd58d10a
be512a98
3daaddba
be229522
3e4a941d
3e7688ad
be291355
be5064ae
be6faad4
3e1ee3d0
be7c69e3
be0aa008
bbbbc241
3d2459b9
3c275543
be573069
3d9dab86
3e6582a9
3e2bb320
be3aa7e4
bd415681
bcf631d4
be035494
3e314b65
bd5b2437
3df10582
bc668a59
3d99aba1
3d1cc740
be6f3c63
3cf5a208
be217724
bdb973d4
3e238420
be4c289d
bdb295a0
be8305c4
3e4d3c87
3e6df3ec
be840f58
be6f2770
be6a3f32
bdb987e6
3d991440
be103314
bdf60cc1
3e6a7a1a
be4ee84e
be2b2d9c
be7bb97d
be79ffab
bdf73c7c
3e306b31
3e4fa63d
be57e1a0
3e18fde0
3e0176d4
be6d0fb2
3dce9dd2
3e1ec447
be18cc50
3e633f1f
3e4ac0c4
3dfcc674
3e0a72cc
3ddf2988
3e6203f8
bdca9b7c
3e19b589
3e54520b
bde0c721
bcfe11d6
3e6cb444
3d67d2a9
be475744
bd773d10
bd969e39
3e353b27
bdda281c
3e69eca9
be403783
bd6afbea
bddd4b58
3dcf2e13
bd9a4f49
be227f9b
bb40e300
3e47dbb8
3db58941
bd2f7b08
3e024029
3e2a277a
bc4f1800
bc94f236
3d7232f5
3dd72a4d
bc7ff084
3d7198e0
bd90e2f2
be0c0188
3e53bbe8
bdc0dcab
bca1fd32
be79f04b
bd44e590
bd9582f3
3ddd703b
3df77d90
bc479a4f
3e00ff5f
bd7c6bec
3dad10b9
3dcc44c4
be6b29a8
3e6905e9
3da44ebc
3e341d12
3e3858c5
bd9848d0
bde2cea9
be024968
3e344693
3e365b59
be1a0aa3
be311104
3e235033
bdf68896
3c621b38
3d03cc47
bd7f0240
be105519
bded54d8
3c355add
3d35006a
bde78a26
3e59b6f4
3e12d10c
bdf2e357
3b9f2d56
bd9fd6b0
3e0010af
bd93c0c1
3e398b9a
be4f0fab
3e4a82c9
be426561
3d5bbade
bdd1ae38
3ddd0f3d
3dfeb771
3b68d300
bd9b4f03
be19ffa6
bdf9327a
3db74051
3e5da6ef
3dfc5538
bd5016b6
bdaa1170
be63fe88
3e72b048
bdd62cd0
3d913da3
3e01c2e5
3dd0dd2f
be2bc972
3de5a63a
be5ed736
be5eca58
bd8afbe5
bd405107
3d561930
be1f75d2
3e7f0186
3e020396
be7eb969
be1bc2d6
3dfefb50
3e3f98ac
bcb1a11c
be5a55fb
3e20adc9
be11ad78
bdfec984
bc4a6d50
3ddca8bb
bbf782aa
3d9895f7
bd98b240
bd9fa3cc
be107ce2
be485f67
3cf2954d
be542134
3bdd3201
be0df95f
3c6b3f46
bc2ba606
be0216bc
3da21308
3ddbbef0
3dafcb37
bde51b9a
bd84bdd0
bd20215a
3e05b05d
3db2e414
bd0077c8
bdb3a348
3e66a043
3dbf3a6c
bc127ce5
bd8e4f08
3db917ed
3ddf9ab0
3e2d015d
3d8328f8
bdc2fc75
bcdacee0
3d6f3889
be300c88
bde3d257
3dd96d78
be76eedf
bddb1a3e
3e68f880
be324a18
3e5a7d30
be0d85a0
bcc49d45
bc2f64f9
bdf535b9
3e296b94
3e4bcb83
3d7d465e
be7806fc
3e2b4dda
3e816824
3e20eb1d
3e308711
bdc456d5
3d1c1431
be1ebb2b
bd89ee77
3e7e41ed
bdd9b68a
be0ae770
be812e80
bd895470
3e477d4a
3d7e46c2
3e441f95
bd4684d0
bd14683f
3d8b5ce6
3e6a72ea
be41fd54
baa2ac00
be14fed3
bd98851c
3d4e8b52
3dab05e8
3e391d10
3db441f0
3c8776a0
be57b0c9
be7f7e8e
3df69688
be4841ca
3c49d6ec
3e52d242
bd31e49e
3e4d89a9
bd844232
bd5d38ce
3e7954b3
bdffa269
3e2f6c41
be2c5984
3e80c3a4
bdfade02
3dc0a09d
3d7fed95
3e2fccf7
3e5667ec
3b35da4c
be24bc26
bd9214a9
be3a15a3
3d879080
3e22cecb
3e2aa65a
3e6f94fe
3d3e3f2e
be74a5e8
3e198ebf
3d968df0
3e05a9b6
be5a8aa4
3d6b0f20
3d622af0
bd0df7e3
be3d9a96
bdde891f
3e4be9d5
3dded11a
be46a6d4
3cf179e4
be238c11
3cc9909f
3dee1710
bdbe63e6
be749da1
3e323693
be3bd627
be6989a9
be0ea654
3d995508
be4578e1
bdeef992
3dd32118
be324598
be04d9e2
bdcf473a
bdf6cb54
be5d278c
3e20a548
bdb1485a
3ba69100
be6437cf
bd722485
be4f02dc
3e5b74b1
be4f39d6
3e04457d
3e603a59
3e2d9e50
be6a2806
3e5228c7
3e259823
be2dce1a
bdb9df08
be7603b8
3e839e67
be640599
3e16f40e
3e597071
3df47f32
3d10a440
bdce00c2
3ccf47b4
bd847094
3caf8bc4
be011934
be12201f
3dd7b303
