3eab0df2
bd9abe6f
3e3ec685
3d5d8da8
3c1e26c0
3e57e303
3dd2bee4
3ea92279
be2fe91a
3d92747d
3db3d3d1
3ea02617
be963d07
bdc4c02a
3eb011b4
be3eb1dc
beb0a937
3e2ac141
bdac5fbf
be72ecd9
3e445ae6
be7fab67
bea5423b
3d7dcf90
be917943
3e2d3867
be104215
be096e95
bdbb90a8
3e11af52
bdb33f50
bdb7a88b
be37c691
bdb40e9e
bc188a85
bde4721a
3dc36f14
3ea084ef
3d934c5e
3e999e6b
3e1e676e
bd96f39b
be491e75
3e4a7a5c
bca931a0
bc33700c
3ea29474
bdaf0a71
3e9916bc
be7f0e6a
3e911327
3e9fddd9
bdf720c2
3dcc6010
3e87f01d
3eacec69
be8d7d3a
be9cfda9
3d443fc1
bea87687
3e494cfa
be91dbf4
be2b2c94
3e37d8bc
3e62154e
be88179a
be308759
bc75a0e0
be6a0539
bc59aa80
3e5d537a
3e99777f
bdf1edce
bdf8283e
beb459eb
3db76834
3d4053f0
3e970661
bb0df380
3e85c5eb
be3baccc
beaff547
3e367d62
be3de8c6
bcfdc130
be9a9231
bd9c9820
3d9fb242
be543289
3e5a9829
3dfe1c99
be033f5d
3e985a79
3eb28a22
3ea8dc9f
3e18a85a
3e933e06
be71953e
3dcdbbb7
bda2ee98
3e314cf2
be8f19b0
3e295ded
3e9cfa49
bea6b76c
bd20e609
3d02628b
3e9f20e7
3ea0d383
bdca86a4
bddc1707
3cebcadf
3ddd6888
3decacec
bd83cc00
3e901845
be98992a
3e994dc1
3ddafc2c
be2b12d6
bdf35fe2
3d754930
3e8a8285
be399172
3e11a158
be4dc3e0
3e4a301a
bbcc3040
be87e15b
bd21f3d3
3e142005
beaebfc0
be07a8ee
3aba3783
3d327c8a
beb049d2
3e36ff50
bc85834c
3d9c96e6
3e915568
bea7fe39
3e4ced54
3db0668f
be5be862
be98c029
3d9b2b10
3e5f301c
3e685a26
3da5c9b4
bdb1accf
3e9ff884
be9b0af1
3d4aa679
be7d2efb
3da81d13
3e582a79
3de2d2d0
3d713655
be5e4f8c
3e5af4fa
3ea1fdce
3e25d592
3e4a3e6a
be976f51
bdccbf2c
bdf06371
3e5d06eb
3d9a53bc
3e3953f7
be3f71a8
3e1ec6c3
3e9ae0d6
be03504c
3d639d1b
bd5e5a8e
bd57830e
3d935941
bc8834c9
bc5968e9
bc41e580
be96a3de
beb75b52
3e9faf9f
be265cd0
be21e948
3da1b740
be9de667
be9c811d
bdb40b40
3e8fc71a
3e87dac1
3e0613ad
be2ce1e5
bdbcbda0
3e50733d
3e22b24a
3ca7dcd0
be49b4a4
be8f9f84
3e94e93f
3db9e22a
3e18b68b
bda9089b
3dc86ce3
3debbc60
3e3d54e2
3e200a05
3ea6477f
3d6753e8
3eaf275d
3d4c08e8
3d864abc
bd116000
be1f1261
3de2649b
3e7f01bf
3e84a95b
be2ee41a
bcdc9142
be5d7706
3e96e52d
be84b8c0
be246916
3eab488c
3e7598b0
3d9fc87d
be7d29d3
3e8ddbdd
3d45b9c8
b9efeeaa
beaa8ab6
3ea29e67
be39cc31
3bb2f174
3e902355
3e231ab8
3d6b98f0
be145c7e
3d64b4f2
bb26c316
be372938
3e47aec0
beb2b61a
be4bb05a
3e564836
3e8e1519
be5b915d
3da3c4e3
bdea80e2
3e3f2aaa
bd13153f
be84e744
bc1b0b60
be256356
3d94b41c
bc57c11a
bda25519
3dd1d9e9
3d0658ba
3e3ae68e
bd183878
be9cee3a
be8bc676
be7bb807
3eacdbb9
bd85ac22
be8b4fb0
3e8b95cb
bd037b00
3eadfa25
3e6412d6
3d534171
b9b31dc4
3e4cea69
be1ae3f6
bdb8db78
be52cf4b
be3ece6b
3e8a11fd
3e5f040e
3de75a50
bdd0c568
3e7db711
be3168bd
bea0ef17
3e8ff89a
bd1c836c
be9202a5
3cf61ec0
be226143
bbf22b80
3e24d78a
bd81c314
be0636bd
3e98fd6d
bea4d1b9
be8acdce
bd355740
3d909aa0
bd8da7a8
be9955fc
3e033c30
3d9f27c0
bdc6827c
3eb00fab
be9d1479
3eabd6bc
be9a09a5
be85f8ec
3dd00c1d
3ea778c0
3ea080d7
3e5a6d5f
3e5c311f
3dbae7ee
3d14d195
beaffb24
3d45ac68
3e8de8a1
3e4d8832
be97dfa9
3ead2186
be71dac7
beb20cf4
3eb1cd89
bd842ce2
3e76f3be
3e2cc74e
bd13907f
be0951d7
3dae4ab1
be02db98
3e624dea
be497628
bcabba7b
bcaaf614
3d4d217d
3e585292
be718aef
3de11f1c
3dde7420
be19598b
3e824312
be8a966f
bd34d354
bde6d80c
3ca81bf6
3df1d082
be9d92cc
be2387be
3e07e5a7
3e93cf9f
be5f03dd
be8474db
3e50cd81
3e96da7b
3e978021
be340233
3c0db828
3e0c8fd2
3e6fefe9
bdff4899
3df632f5
3e1aa2af
be093b90
be4dbc03
3de4d5d0
3e08e19a
3c1f5927
bdd059c4
be809130
3e81143f
bdc27f30
bea3f8b4
be6365c9
bdaf9892
3e8534a8
3ce0fbdb
be94d267
3e0a4d34
bd80cb1c
3d7335d8
3e84f1fb
be1cdad1
be216d8d
3e11a3a4
be937712
3d718c38
3e9eb61d
be959d85
3e869103
3d140360
3d57ba30
3d89dde8
3e91452f
3dd80874
bdb1b1e8
be359f5d
3dee0de8
be79e26c
3ea0915a
3e4f8ef6
be1f6c78
be9abcaa
bd8eb0b0
3e2fdc23
3eaa4a49
bd9006d8
bd3302e2
be40b7d2
3e5c4092
be811d78
3ea573ed
3e217a4a
3d971b96
be6cb32c
3e875e4d
3e9b8a56
be331e56
bead3ce8
be63fa02
beafbf5f
3c0ee1f0
3e6e94a2
be0e76f2
3e1775b5
bdf180f3
3db197f7
3e359872
3ea04ec5
be9211d2
3e4790da
3c26d8d5
be8107de
be100034
3e5f26ee
3e7a7d42
3dace13c
bdbe25af
bdfd3e4d
bddaa260
be3ffd45
3e63f592
3e8d5b87
3e87f0b9
3e20b72b
3daedac9
3ea10f33
3e5622e4
bd77e29c
be399561
bd47da70
bda9de88
3e8789f3
3e7294f6
3deac91e
3dbcde24
3da6f846
be8071ea
3dae28fc
bd8eae58
3d4d2a6c
3ca054dd
bd1c0f45
3e51ddf2
3cf3dd60
bdf4f1b2
3db83c40
3e00e06e
3e4f9506
be1084fa
be81daf5
be3bf01e
be9e48d8
be834954
3cc1f9a0
3deb499c
be124750
be89fb36
3e993f49
be12ce70
3e62b86e
be1597de
3ccfd780
bea61aa4
3eb06da1
beb4516d
be71f633
be12e7ce
bd93258a
3e6887be
be9f1c1b
3e3c634a
be2cb4b1
3e942b09
be82173b
bd675408
bcc23260
be862538
be736163
be46e32e
be9626f4
be25f3f6
3ea63e5f
bde769a1
3e72d018
be756e94
bd1f37ba
3eafe57d
bd9509b3
bd8f4681
bd29ac67
