be281c61
3e53483d
bf08468c
bed8a2b8
3e0c9704
3e75ad58
3cca3d40
be86562d
3efe2180
3e53c0dc
bec13fce
3eab6b4a
be46799e
befa3ffc
3f0eb3cc
3e9124f1
3e761c36
beba1b84
3ee1d779
3f112809
bee728db
3f046b28
be47e22f
3e874a87
3e3530e4
be9442e6
3ebc597c
bebf141e
3da5d813
3ebfb315
bf070b10
ba5f6f95
